800f800000000f80000000800080000
f800080008f80008f8f8f80800000800
f800000000080008f8080800
f8000808000000f80000000000000000
800000000f80000f80000f808000008
f808f80000f80000f80000f8f800
8000800000000000000000000000000
f8000008000000000000
8000008080000000000080000
80000080000000000000808080000
8080000000808000000000000080808
8000000f808080000f8f80008
f808000800f808f800f80800f800
800f80800000000000800000808
f800f808f800000000f8080000
f80000f80800000000080800000000f8
f800000000f800080000080808000000
808f800f8f80000f8000000f8
f800f80000000000000800000000f8
80000080008f80000000008
8000000f8000000000000f8f8f80000
f8000800080000f8000800000000f8
8000800f80000f80000000800000808
80000f80008f80000000000f800
f80000080808000000000000000000f8
f80808000000f80000f8f800
800f8f800000000000000000008f8
f80000000808000808000000f8f800f8
f80000f800f800f8000808000008
f800000000080000000000f800000000
8000000000808080008f80000000000
f8000000000800f800f8080000
800000000000000000000f8080008
800f8000000000000000800f80000f8
8000808f80000f8000800000008f8f8
f80008f8000800000000000008000008
f800f80000000800000000f8f8000000
f800000008f800000000000000f800
f8f80800000000000000
f800000800f800f8000800000000
8f80000000000000800f80800
80800000000000000000008000800
800000008f80008f8000008000000
f8f808000000f8f8f8000800080800
f80008f8f80000000800f8f800080000
f8080000f80000000000080800000000
f800000800000000000000000000f8
80008000008f8000000000000f8
f80008000000f80008f8000808
f8f800000008f800f8000000f8f8
80000f800f808000000000008
f8080000f8080000f808080008
f800f800080800f8f80000
f808f8f800000808000008f8000000
8f80000000000000008000800080000
80800080000000800000000f80000
f80000000000000000000008
800f808000800000000f8f800000000
8f8000000f8f80000000000f8000000
8f808f8f80000000000f8f800000000
8f8f8f800f8f80000080000000808
f800f8080800f8f80800f8f8000000
f8000008f8f800080800000000000000
f8f80000000000000800000008f800
f8f800f800000000f8080800000000
f800080000f800000000
f8f800f800f800f80000f80800
f8f80000000008000000f80000f8f808
80800f8f8f800000008f8080000f8f8
8000000f800000808f800f8000000
8f80000000800000000080000f8
8080800000000f80000f8
f8f800080000080000f8000000
f80800f8f8f8000800000000
800f80000f800f800000800
800000000f8f800f808f8f80800f8
f808000800f800000000000000f800
f80000000800080800000000000000
f80008f800f800f800000008000008f8
800000000000808f80000f800f8
8000000000000f8f800
f8f800080000f8f80800f8000000f8
8000800f80000080000f8f800000800
808f80000000000080000000000f800
8f808f8080000000008f8f8000008
8080000000808f80800000000f800f8
f8f8080000f800080008080800f8
f800f8000008000800000000000000
8f80000000008000000f8080008f8
f80000000000000008f8000000000008
f8000800000008f800080008f80000
f8f800f80000f80000
8f8f808f8000000000000f80000
808f8f808080800f800f80000000000
f808000000f80000000008f8
808f80000000000f80000f800000000
8000008000000f8000008000000
8000808f80000000000f8f8000000
800f8f8f808080000000000080000f8
f8f80000f808f808000008080000
f800000000000000f8000808f8000800
8f800f8f808f808000000080000
f800000000f80000f80000000808
808f80000f80008000000000800
8000000f8000008f80000f800
f808000000f8000800000000080000
800f800000000f808f800f808000000
80000000000f800000000
f800f80800f808000000080000f8f8
8080800000000000008f8f808f80800
f808f8000000f8f80008000800f808f8
800f8f800000000000800
8f8f8000000f800000000000000
f800000800f8000000f800000008
800080000000000f8f808000000
f8f800080000080000080000f80808
f80800000800000008000800000000f8
8000008f808f800f800000000000000
f8f8080000000000000808000000
800f800f800000000000000f80008
8f800000800f80000f800
80000080000f80000f80800f80000
8f80000f8000000f80000000008
800f80008f8000000f80000f8f800
f8f808f8000000000808f8f800f8f800
f8f800080000000800f800000000
f80800f800000008000800080000
800f800000000f8000800f800f8f800
f8000000f80800f80000f8
f8000000f800000000f8f808000800
80000f800f8000000000800f8f8f800
800f8f8080800080800080000000000
f8f8f8f800000008f808000008f8
f8000800f800f800f8080000f8
f8000000f80000000008f800000000f8
f80008f8f8f8000808f800080000
8f8000000000000000008f800f8
f800f80008f800000008000008f800f8
f8000000f80008080008000008000000
808f800f800f80000f808000000
808000008f8000008000000000000f8
f800000000f80008f800
f800000000f800000000
f80000f80808000800f800
f808f8f808000008000000080000f800
f800000000f800f80008000808000800
800080000f80000000800f80000f808
f80000f8080000000008f8f800080000
f800080008000800f8f808000800f800
f8f800f8f8000000000800080000f808
800f800080000000800000000
f8f8f800f8000008
80000000008000000f80800000008
800f80008000000080000f800
8000000000000f800000800f8000800
f8000000f8f80000000800f800000000
80000000000000000000000f80008
8000800000800000000f8f8f808
80800f80800080000000000
f80800f80000f800000000000000f800
80000000008000800000000f80800
f800f8080000f8000000f8f80808f800
f8f800000000f800000008000808f8f8
80000080000000800080000000800
f800f8000008080000000000f80000
f80000f80000f800080000f800f80008
f8000800f8000000000800000000
f80000f800f80008f808000000f8
f80800f800000000f808f8f800f80000
800000000000000f8f80800000000
8f800000000f8f80008f800f80000
f800f80800000000f8f80000
808f80000f8f80000000800f800f800
800000000f8
800080008f8f80000f808080800f800
8000000000000f80000f80008f8
f800f80000000800f808f8000808
f808f808000800000800000000f80000
8000800000800000000000000
80000f8f8f80008080000f8
8000008f80000f8080800080000
f8f8000000f8080000f8f800080800
f800f808f80000f8000000f80000
f800f8f80000f8000800080808000008
f8000000f80000f8000000000000
8000008080000f800
f800f8f800f8f8f800f80800f8080000
f8000000f80000f800000000
800000800f8f80000000800000000
f8080000000000f8f80008000000
80008080000080000f800000000f800
8000000000000f80000f80000f80000
f80000000000000000f800080000
f80000f800f8f800080000080800
800f8000000f8000000
80008f808f800000808f800000008f8
80800f800f8080000000000
8080808000000000000000008000800
800f800f80800f8f8f8f800f8
f8000800f800f800000000
8080008f8f808f800f80000f8
800f80808000008f800000000000000
f8000800f8000000080000000000
8000000f8000800f8f80800f808f8
f80800f8f8080000f808f8f8f8f800f8
f80000f8080000f800f8f8f8
800080000f8f800000000f800f800
800080000000008f800000000f80800
f800080000000000f800000000000800
8f8000000f800000800000000f800
80008000800000008000008f8f80800
808080008f8f8080000f800000000f8
80000000000000800000008f8
80000000000000000000008080800
800f80000000000f8000000f8000800
f800080000f8000000f808
f8000800000800000000f800
80000000000080000000000000000
800000000f808f8000000000000f8
8000008080000000000000000
80000000000
800f80000000000000000f8000008
f80008080000f8000800080000000000
f800080000f800000008000008f8
800000808f800080000000000f80000
f808000800080008f800f80000
f8080000f800f8f8000008f8f8
8f8000800000000080008f8f800
f800f808f808f8000008080008f80808
800f800000000f80008f8f8000808
800f800f8000800f80800000800f8
8000000000000000800f8f8000000
f800f80008f80000000000000808
8f8000000f8000808000000f80008f8
80008f8080800000000000800
8000000f8f8080000000000f8f80000
f8f80000f8f8000008000000
8000800000000f8f800000000080800
8000800f8000008f800000800f800
f8f8f80808f8000000f80000f800f8
f800000000000000000000000800f8
f8000008000008f808000000f8
f8000000000000000008000000f80800
800f8080808000000000008000008
f8080000080008000000f800080008f8
8f800f808000008000000000000f800
f800f8000000000000080000f80008
f800000800f8080000f800f8f8000008
808000000f80000000000080800f8f8
f808080000f800f8000800080008
80000000800f800f8f80000f8000000
f8f8080000000800080808f8f80000
800000000000000f8000008
f800f80000000808000000f80000
f8f8000000000000f8f80000f808
f800f8f808000800f800f80008
f800f8f8000008000008000000000008
f800000000f8f808f800f80000f8f800
80000f8000808080000f80000000000
f8f80008000008f8000000f8080000f8
f8000800f80000000800000800
f808000000000000000000f800f80000
800f8000000
80800000000f800f800f8f80000
8000000f8f8f8f808000000f808f8f8
f80000080808080800000000080800
8f80800080800000000000800f8
80000000000000008f80008f8080000
8f80000000000f808f8f8000008f800
80800000008000000000000f8
8080000000808f80008000000f800
80000000000f8f8f808000000f80800
800000800000000f80808000000f800
800f800f80008f8f808f80000080808
f8f8f80000f80008f8080800f80008
f8f800000008000000f8f80800f8
80808f800f8f80000f8080000
800000008f80000f80000f8000800f8
800f8f8080000f800f80000000000
f808f8f8f8f8f800000000f8080808
8f8000000f800f808000000f8000000
80000000800f80000f8f8
f80000f800080800000008f80000f800
f800f80800000800000000f8000000
80000f80000000008000000f8000000
f8080000000008f800000000f80000f8
8000800080000f80800000808f80000
f8000000000008f80808f800f80000
f8080800000800000000000800080000
f80808080000000800080008000000f8
f80800f800f80808000000f8000000
f80000f800f8f80000f800f800f8
800000008f800000800f8f808f80800
f80000f800080000f80800000800
f8f80008000808f8000800
808000000000800080800000000f8f8
8f80000000000f800080000f8f808
f8f80800080000f80800000000
f800000008f808000008f80000f800f8
80000000000f8000000f800f8f808
f8000000000000080808f808
800f80000000008000008080000f8
f800f800000008f8080000000808
80000080000f80008f800000808
f800f80000080008f8f8000808000008
f8000000f8f80800f8000800f808f8
8000000000000000800000008f80800
f800080008f8080000f8000808000008
f8f800f800000008f80000f8f8000008
f800000808000008000000f80000
80008000800f80000080000000000f8
800000000000000f800080008000000
f8f80000f808080000080800000800
f8f8f80008f800f8f8f8000000
f800080000f800080800000800000000
808f8000000080000000008080000f8
f8080000000800f8000800f8f8
8f8f80800080800f80000000000f8f8
8080000f8000000080000000000f808
f8080000000000000800000000f80008
f8f800080800f8f8080000f800000000
f800f800080000f8000000f80000f808
f8000000f8f8000008000800
8f8f8000008000000f8080000f800f8
800f8f80000000000080000000000f8
800000000f80000f8000800000000
f8000000000000f8000808f8f8080008
800f80000f808080000f8000800
f800f8000000000808f8080000000000
f80008000800f80000f80000f8
8000808000800000000000000f8
8f80008000000000800f800000800
f8000800000800000000f800f8f8f800
80800000008000000000800080000
800f8f80000000000000000f8000000
f8f80000f8f800000008f8000800f800
8000800080008f8f800f800f8080000
f808000000f8000000000000000000
8000000080000000000080008000800
f8f800000000f80800000000000800
80000000008f8f80000000008000000
80000080800080000000000000000
8000000f808000000000000000808
f8000800f80000000000080000000008
8f8f8080000f80000f800f800f800
f800f8f8f800000000f80000f800
808f8080000f8f80000000000f800
80808f8000800f80800000000000008
80808080000f8080800
80000f8f8000000f80000000800
f8080000000808f8000000f800f8
8000000080008080000f808000808f8
f800000000f8000800000000000000f8
f80008f800000000080800f800000000
f800f800f8f8f8000000000800000800
8080008000000000008
f800f80800000008f8f8000008000008
f8000800000808f8000800f808000000
80800f8f8f8000000000800f8f8f8f8
80800f8000008000000f8
f8f8000000000008000008f808000000
8000000080000000000f8000800f808
f800f8f80000f8080000000000080000
80000f808080000f8f80000
8000000000000000000f8000000f8
8f80000000000000800080800f8f8
8f80008080000f800000800f8080000
800f800f8000000f80000f8000800
800f80000f80800000000f80000f8f8
800000000000808080000f8f8
f8000008000000f800000000f80800
f8000000000800080000000000
8000000f8f800f800000808f80000
f8000008000000f8f8000000f80008
f800000000f8f80800f8080800
8000008000800080800f8000800
8080808000000000000080000
80808f80000000800f80800000000
f800000008000000000008f8f8000000
80000000000080000f80808f800
f80800000008f80000f808f800
8000000000000080000f8f800f808
f800f80000f808f8f800f8080000f808
f8000008f8000800f80000
f808f80000080008f80000080000f8
f800f80000f8080808f800f800
800000800000008f808
f800f800000000000000000808000000
f80000000000f8f8000000000800
f8f8080008080000f800f80808
80000000808f8000000f80000000008
80000f80808f80000000800
f800f8080008080000000008f80000f8
80800f800f808080008f8f808
808000800f8080000f808f80000
80000000800000800f8080000f800f8
f8f80000080000000008000000000000
80000f800080008080800000000f800
80000f8080800000000080008
8000000000800f800000000f8000000
80000f800f80000f8f80800f8
f8f80000f800f8000000080008000000
80000000800f80000f8080000000800
f800000800f8080800000000f800f800
8f800000000f800000008000800
80000f80008000800000008
800000000f800080000f8000800f8
f80000f80000f80000f8000008
f8080000f8000000000808f80008
80008000008000000000808000000f8
f8f8f80008f8f8f80000000000
8080000000000f80000000008
800000000f80008f808000800080000
f8080800f800f808f8000000000000
80000f8000800000000000008f8
f8000800080000000000f8000000f808
f80000000000f800f808f800000000
800000800f800000000080000f8
80000f8080000000008f8f8f80800
800f8f80800080008f80808000000
f80800080800f80000f808000008f808
f80000000000f808f8000000f8f800
8000000000008000800f800000000
f8f8f80800f8000008000000000008f8
8f80000080000000000f800f800f800
8f8000800f808000800f8000000
f8f800f80008000000000808000000
80000080000f8f80000080008f8f808
f8080008000808f80008f80000000000
8f8f8000000f808000800f800000000
80008f8000808f8000800f80800f800
80000f800000000000000f800f8f808
80800000008080800f8f800000800
f8f808f8000008f8
8080000000808f80808f800f8f8f808
8f8080800000000000000000000
f80000f8f8f800000000f800000000
8f80000f800000000
80008000808080800000000f800
f800f808080000f8f8f8f80000
8000000000808000000000000f8f8
f800000800000000f8f8f80000000800
f800000800f8000000000808f800f800
f8000008f800000008f80808080800
f8f8f8f800000000000000f808000000
808000000000000000000f80000
8000000000000f8000000000008
8080008000808f80000080000080000
8f8f8000000000000f80008080008f8
f8f8080008080008f80000f800
f8000000f808000000080000f808f808
f8000000f80808f800000800f800f8
8000008f808f80000000008080000
80000000808080800f800080000f8
f80000f80800f8000000f8000000f800
f80000080008f8f8000800f8f80000
800f8080000f800000000
8000000000000f800f80008000000
808f80000f80008080800f8f8080000
8000808000008000800000800f808
f800f8f800000000000800080000
f8000800080008f800000000f8000800
f800f808f800000800f8
8000000000000f8000800080000f800
800000800f808000000f80000000000
f80808f8f8f8000000f80000
f800000000000008f8000000000000f8
800f80000000000f808000008f80000
f800f80008000000000800000000
8000000f8f80008
f808f8000000000000f800000008
f80008f808000000000008f800000008
f8f8000008000000f8f800
8000808f808000000f80000f80000f8
8f80000f800f8000000000000f808
f8f8f808000800f800f8000000000008
8f800000000f80808f800f800f80000
f8000000000000000008000000
80808000008f8f800f80000000800
800f8000000f80008000008080008
f80000f80000f8000800000000000000
8f808000000f800f800000008
8000800f800080000000008000000
f800f800080800000008f808f8f80000
8000800000800f8080000f8000000
8f80000f80800080808f80800000808
f8f800000800000000f8
800000008f808000008000000f800
800f800000000f80000000000000000
f8f800f8f80800f80000000000000800
f8f808f8000000080000080008
80000000800f80000f80000f8080000
8f8f808000000000800080000
8000000000000000000f800080800
8f800f8000000f80000f800080008
f8f800080008f8000808000008000000
f8080800000800f80800000000
80000000000000000080000f800f800
80008f808000000000800000000f8
80008f80000000000f800000000f800
f8000008000000000000000008000000
f808f800000000000000f80000000000
8000000000000000000000008000008
f800f80000000000000008f8000008
808f8f8000808f800f80800000000
f800f80800000000f808f800000800f8
f800f808f80008080008f8f800
f80000f808f8f80000080000f8f80000
8f8f80000f800000000f80808000000
8080800000800f800f808f8000000f8
f80800000000000800000000f80008
800f8
800000000000800f800000000000808
8f80000f808f8080000000000080000
f8000000080000f8f80800080008
80800f8f808f80000f800f8f800
800080000f80800000000f80000
f800000808000000f80000080800f800
800080808000000000800f808000808
8000008000000000000000000
f800f800f800000808f8f8f8
80000080000f808f800f8f8
f8000000f800000008f80800f800
f800f8000808f800f800f808
f800000800f8f80800f80800000800
f80000000008000000000000080008
f808000000f80000f808000000080000
800000800000000000808000800f800
8000000000008000000000008000800
8000000000000000000000000000008
8f808f80800f8000000000000080008
f8000000000000000808f800000000
f800f8f8000000000008000008f80808
f80000080000000000f8000000080008
8000000f800000008080000000000
f800f8080000000000f808000000
808000000000000f8000008000000f8
80000f8000008000000000000000808
f8000000000008f800f800000800f8
f80000080808080800f80008000000
8f80000000008080008000008f80800
8000000000008f8f808f8000008
f800f800f80800080000f800f8
f80000000000000000f80000080000
800f8000000f80008f8f80000f80008
80000000000000008f800
8f8000000080000000000
800f80008000800f800f800000008f8
8f80000f8080800000008f808f800f8
8f800000000080000000800000800
f800080000f80800f8000000f800f800
f80800000800f80000000000
f80008f8000800f80000000000000008
8080008f8080800f8f8080800000000
80000f8080000f80008f8000008
80000000000000000f80008f8000000
800000000000000f8f80800
8000008f80008f80008
f80008000000000800f800000000f8
80000000000080800000000
8f808f800f80800000000080000
80000080000f80008080800f80008
f8f8f8000000f80000000008f8f800
800000008080008f8000000000800
800f80000080000f800000000
f8000008000800000000f80000000000
f8f800000000f80808f8
80000f800f8000000f80000000000f8
8000000f8f8f8f8f808000800f80000
f8f800f80800000000f800000008
f8f808000800000000f8f8f800
f800f80800000000f8f80000000000
8080008080000f80000000808000008
f80008f80000000800000000f8f800
f8000000000000f800000000f8f80008
80000f8f800000000f8f8
